0000000110011100
0000000011100111
0000000011010101
0000000100110100
0000001001010010
0000010101010101
0000000101011111
0000010010111101
0000010110111011
0000001010101001
0000011101011111
0000011111011111
0000000101001100
0000000101011101
0000000100111110
0000000111100100
0000000111101011
0000011010101100
0000000011100011
0000011111100100
0000000101101011
0000000111100111
0000000101011101
0000011010011010
0000000011111000
0000010011111011
0000000100110110
0000000011011100
0000000101100111
0000010010011110
0000000100111111
0000000110111100
0000000101101111
0000000011101101
0000011111100110
0000001011111110
0000000011101001
0000000011101111
0000000111001010
0000001000111011
0000000101101000
0000011111100101
0000000100011011
0000001111011001
0000000100110010
0000011110100101
0000011110101011
0000000100101101
0000010101111001
0000010011110011
0000011100111101
0000000111100111
0000011111001010
0000001110110011
0000000100011011
0000000011100110
0000000100100110
0000000011111011
0000001010111011
0000000011111110
0000000101001011
0000000111001101
0000000100100101
0000011001100101
0000000011101001
0000000011111011
0000000100011100
0000000101011110
0000011111011000
0000011001001101
0000001001101011
0000000110011111
0000000100100011
0000000011010001
0000000101111011
0000010100011101
0000001100111100
0000000100111011
0000000101011111
0000000111110001
0000000101110101
0000010001111110
0000000101000111
0000000011101111
0000000101110011
0000000101111010
0000011110100111
0000000101101001
0000000100011010
0000000110011100
0000011010111101
0000011010010100
0000000101101101
0000011011110101
0000000011110101
0000000011110010
0000000101111101
0000011110101011
0000000111001111
0000001011100110
0000000101001000
0000000101101001
0000000100111101
0000000110111111
0000010010001110
0000001001110010
0000011010111110
0000001001111001
0000000011101001
0000000100111100
0000011111110100
0000000100110001
0000001010010111
0000000101010111
0000000101101011
0000000011110100
0000000100100110
0000011011101001
0000010100100110
0000000110100110
0000001101100101
0000000101001110
0000000101010101
0000001101110111
0000000101100110
0000000100111001
0000000101001011
0000000101101101
0000010110111111
0000000011111001
0000000101001100
0000000100011111
0000001000111001
0000000111110101
0000000100011101
0000010110100111
0000000100111011
0000000011010110
0000000100110101
0000000011011101
0000000011010110
0000011001111000
0000011111001111
0000000111011001
0000000101001101
0000011000111110
0000010011111100
0000000011011100
0000001110101010
0000000100110110
0000011101110110
0000000101011010
0000000011110101
0000000100111011
0000000011011100
0000010101011110
0000010100100110
0000010101111101
0000010110111010
0000000111111010
0000000100111111
0000010100111110
0000001111101010
0000000011001111
0000010101010010
0000000100101011
0000000011100111
0000000110110100
0000011011101001
0000000011011101
0000000100110001
0000011100011011
0000000100111111
0000000011100101
0000001011000110
0000001010011101
0000000100110110
0000000011001110
0000011101011101
0000000101110111
0000001100110010
0000001100111011
0000000011011001
0000000111010111
0000011111101000
0000010011111001
0000010101001110
0000000100110110
0000000100100101
0000000011101101
0000010101011010
0000000111100110
0000000011111101
0000000011101000
0000001111111101
0000001100100100
0000001010100111
0000011010011101
0000000011011110
0000011000111101
0000000011110110
0000011110111101
0000000011111110
0000001111111101
0000001111000110
0000000011111011
0000000101010110
0000001011111010
0000000100101011
0000001111110010
0000000101011111
0000010110110111
0000010111010010
0000011000111010
0000000100101011
0000000101110101
0000000100101001
0000000100111101
0000000011011000
0000000111101010
0000001010011100
0000010010010001
0000010010111001
0000011010111010
0000000100101111
0000000100111001
0000000101011010
0000000011111110
0000000011101010
0000000101111001
0000000011100100
0000000011010111
0000011100101000
0000000011111111
0000000111110011
0000001010010111
0000010100111011
0000000011011010
0000000011011101
0000000011010011
0000001011110100
0000000101100110
0000000101101011
0000001111001010
0000001100100110
0000001111111011
0000001100110010
0000001110101001
0000001110111010
0000011111110110
0000000100110001
0000001101111111
0000001111001101
0000000110011100
0000000100101111
0000000011101011
0000000101111011
0000000110010111
0000001111101111
0000000011100111
0000000100110111
0000000101000111
0000010101100110
0000000110110010
0000000011111100
0000011001111000
0000010011111101
0000000011111110
0000011010011111
0000010101111011
0000000111011101
0000011010101010
0000000100101101
0000000011011111
0000001011111110
0000000111011101
0000000100100011
0000011111010111
0000001001010110
0000000100100100
0000011011010101
0000001111111100
0000001000111100
0000000011101011
0000000011111111
0000000011011111
0000000111011101
0000000110011011
0000011110101100
0000000101010110
0000001110011111
0000011111101010
0000011001101000
0000010110001110
0000000100110100
0000000100110010
0000010010011111
0000000100100101
0000000101001010
0000000011010110
0000010001111111
0000010110101100
0000001001001101
0000000111011010
0000000100011110
0000000011101101
0000010100100101
0000000011100111
0000001001110111
0000000011111111
0000010111001110
0000000011101101
0000011010111001
0000000111110010
0000000100110011
0000010011101110
0000011111001011
0000011010110011
0000010111101111
0000000100101101
0000001001101100
0000001011100110
0000000101111000
0000000100111011
0000010101111101
0000001101101111
0000001001111111
0000000110111101
0000000111011111
0000001101011100
0000000011111101
0000011011101100
0000001110111010
0000011111101100
0000000101010010
0000000101001001
0000011111111101
0000001001111110
0000000110110101
0000000100111100
0000000101100101
0000010110101101
0000011011101001
0000001111101100
0000010010011101
0000000100111111
0000000110011001
0000000101010011
0000001101110011
0000000011111010
0000000101110101
0000010100101010
0000000011001110
0000011100111001
0000011111101100
0000000100101111
0000000100110011
0000000110010011
0000000100100111
0000000100110001
0000000011111101
0000010110110100
0000001111000110
0000001011010010
0000000101001010
0000010100111110
0000011111011111
0000000011010111
0000011010100111
0000011100011111
0000000110111011
0000001000111010
0000000110011011
0000000101110100
0000000111011001
0000001001111100
0000010010011011
0000011011110111
0000001010011111
0000000111001001
0000010101111101
0000010110101010
0000000110011001
0000000101001011
0000000011010111
0000000101010110
0000000101100111
0000010001111111
0000000101011111
0000000101011001
0000011001001111
0000000100100011
0000000110110011
0000000100111011
0000000110011110
